
// This is a TensorFlow Lite model file that has been converted into a C data
// array using the tensorflow.lite.util.convert_bytes_to_c_source() function.
// This form is useful for compiling into a binary for devices that don't have a
// file system.

#include "sine_model.h"

// We need to keep the data array aligned on some architectures.
#ifdef __has_attribute
#define HAVE_ATTRIBUTE(x) __has_attribute(x)
#else
#define HAVE_ATTRIBUTE(x) 0
#endif
#if HAVE_ATTRIBUTE(aligned) || (defined(__GNUC__) && !defined(__clang__))
#define DATA_ALIGN_ATTRIBUTE __attribute__((aligned(4)))
#else
#define DATA_ALIGN_ATTRIBUTE
#endif
const unsigned char sine_model[] = {
  0x1c, 0x00, 0x00, 0x00, 0x54, 0x46, 0x4c, 0x33, 0x14, 0x00, 0x20, 0x00,
  0x1c, 0x00, 0x18, 0x00, 0x14, 0x00, 0x10, 0x00, 0x0c, 0x00, 0x00, 0x00,
  0x08, 0x00, 0x04, 0x00, 0x14, 0x00, 0x00, 0x00, 0x1c, 0x00, 0x00, 0x00,
  0x94, 0x00, 0x00, 0x00, 0xec, 0x00, 0x00, 0x00, 0x08, 0x07, 0x00, 0x00,
  0x18, 0x07, 0x00, 0x00, 0xf4, 0x0b, 0x00, 0x00, 0x03, 0x00, 0x00, 0x00,
  0x01, 0x00, 0x00, 0x00, 0x10, 0x00, 0x00, 0x00, 0x00, 0x00, 0x0a, 0x00,
  0x10, 0x00, 0x0c, 0x00, 0x08, 0x00, 0x04, 0x00, 0x0a, 0x00, 0x00, 0x00,
  0x0c, 0x00, 0x00, 0x00, 0x1c, 0x00, 0x00, 0x00, 0x38, 0x00, 0x00, 0x00,
  0x0f, 0x00, 0x00, 0x00, 0x73, 0x65, 0x72, 0x76, 0x69, 0x6e, 0x67, 0x5f,
  0x64, 0x65, 0x66, 0x61, 0x75, 0x6c, 0x74, 0x00, 0x01, 0x00, 0x00, 0x00,
  0x04, 0x00, 0x00, 0x00, 0x94, 0xff, 0xff, 0xff, 0x09, 0x00, 0x00, 0x00,
  0x04, 0x00, 0x00, 0x00, 0x07, 0x00, 0x00, 0x00, 0x64, 0x65, 0x6e, 0x73,
  0x65, 0x5f, 0x34, 0x00, 0x01, 0x00, 0x00, 0x00, 0x04, 0x00, 0x00, 0x00,
  0x86, 0xf9, 0xff, 0xff, 0x04, 0x00, 0x00, 0x00, 0x0d, 0x00, 0x00, 0x00,
  0x64, 0x65, 0x6e, 0x73, 0x65, 0x5f, 0x32, 0x5f, 0x69, 0x6e, 0x70, 0x75,
  0x74, 0x00, 0x00, 0x00, 0x02, 0x00, 0x00, 0x00, 0x34, 0x00, 0x00, 0x00,
  0x04, 0x00, 0x00, 0x00, 0xdc, 0xff, 0xff, 0xff, 0x0c, 0x00, 0x00, 0x00,
  0x04, 0x00, 0x00, 0x00, 0x13, 0x00, 0x00, 0x00, 0x43, 0x4f, 0x4e, 0x56,
  0x45, 0x52, 0x53, 0x49, 0x4f, 0x4e, 0x5f, 0x4d, 0x45, 0x54, 0x41, 0x44,
  0x41, 0x54, 0x41, 0x00, 0x08, 0x00, 0x0c, 0x00, 0x08, 0x00, 0x04, 0x00,
  0x08, 0x00, 0x00, 0x00, 0x0b, 0x00, 0x00, 0x00, 0x04, 0x00, 0x00, 0x00,
  0x13, 0x00, 0x00, 0x00, 0x6d, 0x69, 0x6e, 0x5f, 0x72, 0x75, 0x6e, 0x74,
  0x69, 0x6d, 0x65, 0x5f, 0x76, 0x65, 0x72, 0x73, 0x69, 0x6f, 0x6e, 0x00,
  0x0d, 0x00, 0x00, 0x00, 0x18, 0x06, 0x00, 0x00, 0x10, 0x06, 0x00, 0x00,
  0xfc, 0x05, 0x00, 0x00, 0xa4, 0x05, 0x00, 0x00, 0x54, 0x05, 0x00, 0x00,
  0x04, 0x05, 0x00, 0x00, 0xf4, 0x00, 0x00, 0x00, 0xa4, 0x00, 0x00, 0x00,
  0x9c, 0x00, 0x00, 0x00, 0x94, 0x00, 0x00, 0x00, 0x8c, 0x00, 0x00, 0x00,
  0x6c, 0x00, 0x00, 0x00, 0x04, 0x00, 0x00, 0x00, 0x36, 0xfa, 0xff, 0xff,
  0x04, 0x00, 0x00, 0x00, 0x58, 0x00, 0x00, 0x00, 0x0c, 0x00, 0x00, 0x00,
  0x08, 0x00, 0x0e, 0x00, 0x08, 0x00, 0x04, 0x00, 0x08, 0x00, 0x00, 0x00,
  0x10, 0x00, 0x00, 0x00, 0x28, 0x00, 0x00, 0x00, 0x00, 0x00, 0x06, 0x00,
  0x08, 0x00, 0x04, 0x00, 0x06, 0x00, 0x00, 0x00, 0x04, 0x00, 0x00, 0x00,
  0x01, 0x00, 0x00, 0x00, 0xea, 0x03, 0x00, 0x00, 0x00, 0x00, 0x0a, 0x00,
  0x10, 0x00, 0x0c, 0x00, 0x08, 0x00, 0x04, 0x00, 0x0a, 0x00, 0x00, 0x00,
  0x02, 0x00, 0x00, 0x00, 0x02, 0x00, 0x00, 0x00, 0x04, 0x00, 0x00, 0x00,
  0x05, 0x00, 0x00, 0x00, 0x32, 0x2e, 0x39, 0x2e, 0x32, 0x00, 0x00, 0x00,
  0x9a, 0xfa, 0xff, 0xff, 0x04, 0x00, 0x00, 0x00, 0x10, 0x00, 0x00, 0x00,
  0x31, 0x2e, 0x35, 0x2e, 0x30, 0x00, 0x00, 0x00, 0x00, 0x00, 0x00, 0x00,
  0x00, 0x00, 0x00, 0x00, 0xdc, 0xf5, 0xff, 0xff, 0xe0, 0xf5, 0xff, 0xff,
  0xe4, 0xf5, 0xff, 0xff, 0xc2, 0xfa, 0xff, 0xff, 0x04, 0x00, 0x00, 0x00,
  0x40, 0x00, 0x00, 0x00, 0x35, 0x9a, 0xda, 0x3f, 0x28, 0x5b, 0x20, 0x3f,
  0x8c, 0xeb, 0xf6, 0x3e, 0x7b, 0xa8, 0x19, 0xbf, 0xb5, 0x61, 0x10, 0x3f,
  0x54, 0x27, 0x68, 0xbf, 0xdd, 0x49, 0x51, 0x3e, 0xca, 0x70, 0x30, 0x3f,
  0x03, 0xa5, 0x44, 0x3e, 0xee, 0x12, 0xe4, 0xbe, 0x94, 0x1d, 0x97, 0x3f,
  0xfa, 0xd7, 0x91, 0xbe, 0x41, 0x30, 0x00, 0xbf, 0xc1, 0xcc, 0xa3, 0x3f,
  0xc2, 0x6f, 0x80, 0xbe, 0xea, 0xf2, 0xe3, 0x3e, 0x0e, 0xfb, 0xff, 0xff,
  0x04, 0x00, 0x00, 0x00, 0x00, 0x04, 0x00, 0x00, 0x76, 0xab, 0xcd, 0x3e,
  0xd2, 0xed, 0xec, 0xbe, 0xc2, 0x6d, 0x79, 0x3e, 0x6c, 0x2f, 0x69, 0x3e,
  0x2a, 0xd9, 0x2e, 0x3e, 0x50, 0xf6, 0xa1, 0x3c, 0xe0, 0xfe, 0x8c, 0xbd,
  0x0e, 0xd4, 0x2d, 0xbf, 0x06, 0x56, 0x92, 0xbe, 0x3f, 0xe8, 0x30, 0xbd,
  0x66, 0x5d, 0xc3, 0x3e, 0xa6, 0x1b, 0x2b, 0x3e, 0x92, 0x64, 0x78, 0x3e,
  0xa4, 0x16, 0x84, 0xbe, 0x4a, 0x4a, 0x51, 0x3e, 0xb3, 0x55, 0x8d, 0x3e,
  0x61, 0x66, 0xc7, 0x3e, 0xc0, 0x78, 0x8c, 0xbd, 0x06, 0xa8, 0x49, 0x3e,
  0x7b, 0xee, 0xfa, 0x3e, 0x86, 0xd7, 0xb6, 0xbe, 0x10, 0x2c, 0xce, 0xbc,
  0xd8, 0x17, 0x18, 0xbd, 0xf0, 0xa4, 0x30, 0xbe, 0xdc, 0x42, 0xb0, 0x3d,
  0x8d, 0xf0, 0x01, 0x3e, 0x6c, 0x9b, 0xec, 0xbe, 0x78, 0xb6, 0xc2, 0xbd,
  0x12, 0x34, 0x8e, 0x3e, 0x50, 0xe5, 0xa9, 0xbd, 0x9a, 0xa7, 0x72, 0x3e,
  0x2e, 0x9e, 0xc4, 0xbe, 0x3f, 0x55, 0xa5, 0xbe, 0x3b, 0xde, 0x97, 0x3e,
  0xaa, 0xe2, 0x05, 0x3e, 0xac, 0x7a, 0x94, 0x3d, 0x4c, 0xc7, 0xa8, 0x3d,
  0x25, 0x8f, 0xd6, 0x3e, 0x80, 0x9c, 0x6f, 0x3b, 0x9e, 0x9c, 0x71, 0xbe,
  0xe0, 0xef, 0x38, 0x3d, 0x96, 0xcf, 0xa0, 0xbe, 0x2e, 0xed, 0x1d, 0xbe,
  0x32, 0xfd, 0x14, 0x3e, 0x81, 0xc8, 0x4b, 0xbe, 0x98, 0xff, 0x08, 0xbe,
  0x3d, 0xe8, 0xdb, 0x3e, 0x5b, 0x7b, 0x4a, 0xbe, 0x17, 0xa3, 0x5d, 0x3e,
  0xef, 0x2f, 0xb7, 0x3e, 0x9b, 0x53, 0xb7, 0x3e, 0x29, 0xc5, 0xfe, 0xbe,
  0x6f, 0x8e, 0x7b, 0xbe, 0xed, 0x9e, 0xb1, 0xbe, 0x10, 0xa2, 0x8d, 0xbe,
  0x3a, 0x5e, 0x5c, 0x3e, 0x10, 0xc1, 0xb0, 0xbd, 0x06, 0x4a, 0x2e, 0x3e,
  0x38, 0xba, 0x75, 0xbe, 0x82, 0x4a, 0x94, 0xbe, 0x1a, 0x87, 0xc7, 0x3e,
  0xa0, 0xc3, 0x86, 0xbe, 0x99, 0x80, 0xb4, 0xbe, 0x83, 0x50, 0x9b, 0x3e,
  0x0f, 0x6c, 0x2c, 0xbe, 0xc1, 0x79, 0x4c, 0x3d, 0x58, 0xdf, 0x55, 0xbe,
  0xf8, 0x8d, 0xd2, 0x3e, 0xf0, 0x37, 0x30, 0xbe, 0x41, 0xd0, 0x20, 0x3e,
  0xb7, 0x41, 0xba, 0x3d, 0xe4, 0x52, 0x1a, 0xbf, 0x89, 0x48, 0xa2, 0x3e,
  0x3d, 0x5c, 0x2a, 0x3f, 0x82, 0xc5, 0x60, 0x3e, 0xd0, 0x03, 0x51, 0xbd,
  0x57, 0x5b, 0xac, 0x3e, 0x48, 0xed, 0x82, 0xbe, 0x6a, 0x69, 0x7d, 0x3e,
  0xf8, 0x65, 0x67, 0x3d, 0x25, 0xe8, 0x8b, 0xbe, 0xf4, 0x70, 0x10, 0xbf,
  0x9b, 0xec, 0xb9, 0xbe, 0x62, 0xd6, 0xa3, 0xbe, 0x89, 0xdb, 0xc9, 0x3e,
  0xea, 0x63, 0x95, 0xbe, 0xb1, 0x6f, 0x00, 0xbe, 0xa0, 0xd4, 0x42, 0x3f,
  0x7e, 0x9d, 0xb2, 0xbe, 0x13, 0xb9, 0x82, 0xbe, 0xea, 0xc2, 0x42, 0xbf,
  0x9a, 0x4e, 0x1c, 0x3e, 0x49, 0x0c, 0xc6, 0xbe, 0x6d, 0xe0, 0xc3, 0xbe,
  0x46, 0x52, 0x63, 0x3e, 0xcc, 0x49, 0xb4, 0xbd, 0x0e, 0x3d, 0x81, 0xbe,
  0x3b, 0x63, 0x74, 0xbe, 0x37, 0x28, 0xa8, 0x3e, 0x4c, 0x06, 0xbd, 0xbe,
  0xe9, 0x3d, 0xd7, 0x3e, 0x22, 0x3b, 0x15, 0x3e, 0x62, 0x8a, 0x60, 0xbe,
  0x68, 0x6d, 0xa0, 0x3e, 0xee, 0x3a, 0x2b, 0xbe, 0xe8, 0xa4, 0x35, 0xbe,
  0x1a, 0x9a, 0x83, 0xbe, 0xbf, 0x4c, 0xa8, 0x3e, 0x95, 0x80, 0x74, 0xbe,
  0x4a, 0x0c, 0x85, 0xbe, 0xc0, 0x69, 0x87, 0x3d, 0x1e, 0x67, 0x09, 0x3e,
  0x5c, 0xfc, 0x95, 0xbe, 0x2b, 0x3e, 0xbd, 0x3c, 0x10, 0xb9, 0xf0, 0xbd,
  0x35, 0x32, 0x37, 0xbf, 0x7a, 0x7b, 0x5f, 0xbe, 0x22, 0x12, 0xbc, 0xbe,
  0xbd, 0x97, 0x62, 0x3e, 0x6b, 0x2f, 0xb0, 0x3d, 0x6a, 0x2e, 0xa3, 0xbe,
  0x0c, 0x29, 0x7f, 0xbf, 0xad, 0x6b, 0xd0, 0x3e, 0xd7, 0x97, 0x9e, 0x3e,
  0x9e, 0x30, 0xd7, 0xbd, 0x0d, 0x38, 0xc0, 0xbe, 0x62, 0x60, 0x50, 0x3e,
  0x5b, 0x1a, 0x9d, 0x3e, 0xa6, 0x47, 0x66, 0xbe, 0x8c, 0x6c, 0x31, 0x3e,
  0x80, 0x2f, 0xa1, 0xbc, 0x50, 0x89, 0xab, 0x3c, 0x8e, 0xa5, 0x1b, 0x3e,
  0xd3, 0xae, 0xd6, 0xbe, 0x11, 0x97, 0xef, 0xbe, 0x47, 0x14, 0x60, 0x3e,
  0xb4, 0x5f, 0xc7, 0x3d, 0x67, 0x29, 0xa3, 0x3e, 0x47, 0xd5, 0xe6, 0xbe,
  0x8c, 0xcf, 0xcf, 0xbe, 0xdb, 0x1c, 0x60, 0xbe, 0x50, 0x69, 0x27, 0x3d,
  0x05, 0xde, 0xa7, 0x3e, 0x27, 0x28, 0xb6, 0xbe, 0x51, 0xdd, 0xcb, 0xbe,
  0xc7, 0xe7, 0x92, 0x3e, 0x48, 0x13, 0x28, 0xbd, 0x91, 0xc1, 0xaa, 0xbe,
  0x47, 0xe2, 0x87, 0xbe, 0xc1, 0x79, 0xa5, 0xbe, 0xd2, 0x86, 0x55, 0xbe,
  0x3e, 0xbd, 0xb6, 0xbe, 0xfd, 0x40, 0xc9, 0xbe, 0x98, 0xa8, 0x9c, 0xbe,
  0x00, 0xb1, 0x50, 0x3b, 0xfe, 0x73, 0x81, 0xbe, 0x78, 0xc0, 0x16, 0xbd,
  0xa7, 0xfc, 0x82, 0xbe, 0xe9, 0x5c, 0xd2, 0x3e, 0xc0, 0x63, 0x4d, 0xbd,
  0x4f, 0xe6, 0xd6, 0xbe, 0xcf, 0x74, 0xdc, 0x3d, 0xe8, 0xec, 0xaa, 0xbd,
  0xf0, 0x34, 0x4a, 0xbf, 0x0e, 0x86, 0x66, 0x3e, 0x19, 0xfc, 0x33, 0x3d,
  0xd8, 0xa6, 0xdb, 0x3e, 0x6d, 0x27, 0x14, 0x3f, 0x86, 0x90, 0x0b, 0xbe,
  0x86, 0x38, 0x73, 0xbf, 0x91, 0xaa, 0x65, 0x3e, 0x47, 0x56, 0x71, 0xbe,
  0xb8, 0x7b, 0x7a, 0xbd, 0x05, 0xab, 0xd9, 0x3e, 0xb4, 0x5b, 0x76, 0xbe,
  0xd4, 0x99, 0xc7, 0xbd, 0x53, 0x3d, 0xa5, 0x3e, 0x40, 0xe4, 0x50, 0x3c,
  0x49, 0x7c, 0x9d, 0x3e, 0xaf, 0x28, 0x49, 0xbe, 0x2c, 0x87, 0xee, 0xbd,
  0x22, 0x92, 0x1d, 0x3e, 0x46, 0x44, 0xc9, 0xbe, 0x8e, 0xab, 0x13, 0xbe,
  0xa0, 0xeb, 0x5f, 0xbd, 0x46, 0x58, 0x7c, 0x3e, 0xe6, 0xce, 0x7e, 0xbe,
  0x8f, 0xc7, 0xc1, 0xbe, 0x17, 0x21, 0xb1, 0xbe, 0xb9, 0x1f, 0xc6, 0xbe,
  0x29, 0x1c, 0xbe, 0x3e, 0x84, 0xbb, 0xff, 0x3d, 0x7d, 0x8f, 0x49, 0x3e,
  0xfb, 0x29, 0x44, 0xbe, 0x31, 0x9c, 0xbc, 0x3e, 0xc9, 0x49, 0xe7, 0xbd,
  0xc0, 0x04, 0xf6, 0xbb, 0x06, 0x9c, 0x5b, 0x3e, 0x15, 0x8f, 0x3e, 0xbe,
  0x84, 0x11, 0xc6, 0x3e, 0xd7, 0x58, 0xac, 0xbe, 0xfc, 0x14, 0x92, 0xbe,
  0xba, 0xbb, 0xc9, 0xbd, 0x80, 0x82, 0x0f, 0xbb, 0xf3, 0x8f, 0xa6, 0x3e,
  0x24, 0x7a, 0xbd, 0xbd, 0x6e, 0x82, 0xa8, 0xbe, 0x94, 0x1e, 0xfb, 0xbd,
  0x0f, 0x94, 0x20, 0xbf, 0xbf, 0x8c, 0xa5, 0x3e, 0x7b, 0xfc, 0xa2, 0xbe,
  0x77, 0xf6, 0x59, 0xbf, 0x82, 0xa1, 0xce, 0xbe, 0xe5, 0xd7, 0x2d, 0xbf,
  0x39, 0xda, 0xba, 0x3e, 0x71, 0x8f, 0x9b, 0x3e, 0x82, 0x6a, 0x11, 0xbe,
  0xa3, 0x6b, 0xf0, 0xbe, 0xba, 0xd7, 0xdf, 0x3e, 0xd2, 0x54, 0xc6, 0xbe,
  0x4c, 0xd8, 0x28, 0xbe, 0x87, 0x4c, 0x8a, 0x3e, 0x04, 0xa0, 0xda, 0xbe,
  0xa4, 0x28, 0x17, 0xbe, 0xdc, 0x74, 0x28, 0xbd, 0x31, 0x48, 0xf1, 0x3d,
  0xb4, 0x45, 0xd2, 0x3d, 0x50, 0x22, 0x0d, 0xbf, 0x1f, 0x0d, 0xcf, 0x3e,
  0x4c, 0x27, 0x96, 0x3d, 0x41, 0x59, 0xce, 0x3e, 0xff, 0x33, 0xe5, 0xbd,
  0x2a, 0x59, 0x27, 0x3e, 0x97, 0xa9, 0xca, 0x3d, 0x33, 0x56, 0x5a, 0x3d,
  0x49, 0xd6, 0xb0, 0xbe, 0x1b, 0x2d, 0x19, 0xbd, 0x28, 0x2b, 0x2b, 0x3d,
  0x83, 0x82, 0x91, 0x3e, 0xbe, 0x42, 0x08, 0x3e, 0x8d, 0xce, 0x3e, 0xbe,
  0xd9, 0xf5, 0x8c, 0xbe, 0x98, 0x49, 0x6c, 0xbd, 0xa1, 0xaa, 0x74, 0xbe,
  0x48, 0x5b, 0x7b, 0xbe, 0xe2, 0x91, 0xb2, 0xbe, 0x74, 0xcf, 0xa3, 0x3e,
  0x1e, 0x24, 0x0a, 0xbe, 0x4f, 0xfc, 0xbf, 0x3e, 0x69, 0x71, 0xda, 0x3e,
  0x10, 0xd0, 0xef, 0x3c, 0xfa, 0x77, 0x4a, 0x3e, 0x2d, 0x9e, 0xdb, 0xbe,
  0xbe, 0xf0, 0x60, 0x3e, 0x60, 0x9c, 0xb0, 0xbc, 0xbb, 0x4b, 0xb1, 0x3e,
  0x1a, 0xff, 0xff, 0xff, 0x04, 0x00, 0x00, 0x00, 0x40, 0x00, 0x00, 0x00,
  0x3d, 0x84, 0x91, 0x3e, 0x9d, 0xb1, 0x48, 0x3e, 0xbf, 0x66, 0xa7, 0xbe,
  0x93, 0x29, 0x7c, 0x3e, 0xe7, 0x66, 0xfe, 0xbe, 0x97, 0xd4, 0xf1, 0x3d,
  0xfd, 0xa0, 0x5e, 0x3e, 0xb7, 0xba, 0x8d, 0xbd, 0x49, 0x52, 0xcc, 0xbe,
  0x97, 0xe7, 0xfc, 0x3d, 0x7b, 0x60, 0x2a, 0x3e, 0xe8, 0xd1, 0x07, 0xbf,
  0x47, 0x1a, 0x01, 0x3f, 0xe0, 0x3b, 0x1a, 0xbd, 0xf6, 0xc8, 0x30, 0xbe,
  0x40, 0x19, 0x84, 0xbc, 0x66, 0xff, 0xff, 0xff, 0x04, 0x00, 0x00, 0x00,
  0x40, 0x00, 0x00, 0x00, 0xcf, 0xd8, 0x9f, 0xbe, 0xe9, 0x12, 0xbb, 0x3e,
  0x00, 0x00, 0x00, 0x00, 0x0d, 0xb2, 0x38, 0xbf, 0x00, 0x00, 0x00, 0x00,
  0x75, 0x78, 0x7a, 0xbe, 0x64, 0x5b, 0x37, 0x3d, 0x68, 0xaa, 0x28, 0x3f,
  0x00, 0x00, 0x00, 0x00, 0x73, 0x7b, 0x8b, 0xbe, 0x73, 0x2a, 0x83, 0xba,
  0x00, 0x00, 0x00, 0x00, 0x5f, 0x1a, 0xd3, 0xbe, 0x00, 0x00, 0x00, 0x00,
  0x00, 0x00, 0x00, 0x00, 0x00, 0x00, 0x00, 0x00, 0xb2, 0xff, 0xff, 0xff,
  0x04, 0x00, 0x00, 0x00, 0x40, 0x00, 0x00, 0x00, 0x01, 0xb0, 0x16, 0xbf,
  0x2b, 0xb3, 0x05, 0xbf, 0x00, 0x00, 0x00, 0x00, 0x29, 0xa9, 0x70, 0x3e,
  0xc1, 0x9f, 0xcc, 0xbe, 0x54, 0x7f, 0xe1, 0x3e, 0xdb, 0x4a, 0xed, 0xbd,
  0xc7, 0x72, 0x5f, 0x3e, 0x4f, 0x24, 0x42, 0xbe, 0x00, 0x00, 0x00, 0x00,
  0x75, 0x28, 0x86, 0x3e, 0x00, 0x00, 0x00, 0x00, 0xf6, 0xfd, 0xa1, 0x3e,
  0xef, 0x05, 0x7c, 0x3e, 0x11, 0xbc, 0x75, 0x3e, 0x2e, 0xe8, 0x49, 0xbd,
  0x00, 0x00, 0x06, 0x00, 0x08, 0x00, 0x04, 0x00, 0x06, 0x00, 0x00, 0x00,
  0x04, 0x00, 0x00, 0x00, 0x04, 0x00, 0x00, 0x00, 0x60, 0x9f, 0xec, 0xbe,
  0x3c, 0xfb, 0xff, 0xff, 0x40, 0xfb, 0xff, 0xff, 0x0f, 0x00, 0x00, 0x00,
  0x4d, 0x4c, 0x49, 0x52, 0x20, 0x43, 0x6f, 0x6e, 0x76, 0x65, 0x72, 0x74,
  0x65, 0x64, 0x2e, 0x00, 0x01, 0x00, 0x00, 0x00, 0x14, 0x00, 0x00, 0x00,
  0x00, 0x00, 0x0e, 0x00, 0x18, 0x00, 0x14, 0x00, 0x10, 0x00, 0x0c, 0x00,
  0x08, 0x00, 0x04, 0x00, 0x0e, 0x00, 0x00, 0x00, 0x14, 0x00, 0x00, 0x00,
  0x1c, 0x00, 0x00, 0x00, 0xd8, 0x00, 0x00, 0x00, 0xdc, 0x00, 0x00, 0x00,
  0xe0, 0x00, 0x00, 0x00, 0x04, 0x00, 0x00, 0x00, 0x6d, 0x61, 0x69, 0x6e,
  0x00, 0x00, 0x00, 0x00, 0x03, 0x00, 0x00, 0x00, 0x80, 0x00, 0x00, 0x00,
  0x38, 0x00, 0x00, 0x00, 0x04, 0x00, 0x00, 0x00, 0x9a, 0xff, 0xff, 0xff,
  0x10, 0x00, 0x00, 0x00, 0x00, 0x00, 0x00, 0x08, 0x0c, 0x00, 0x00, 0x00,
  0x10, 0x00, 0x00, 0x00, 0xb8, 0xfb, 0xff, 0xff, 0x01, 0x00, 0x00, 0x00,
  0x09, 0x00, 0x00, 0x00, 0x03, 0x00, 0x00, 0x00, 0x08, 0x00, 0x00, 0x00,
  0x06, 0x00, 0x00, 0x00, 0x01, 0x00, 0x00, 0x00, 0xca, 0xff, 0xff, 0xff,
  0x10, 0x00, 0x00, 0x00, 0x00, 0x00, 0x00, 0x08, 0x10, 0x00, 0x00, 0x00,
  0x14, 0x00, 0x00, 0x00, 0xba, 0xff, 0xff, 0xff, 0x00, 0x00, 0x00, 0x01,
  0x01, 0x00, 0x00, 0x00, 0x08, 0x00, 0x00, 0x00, 0x03, 0x00, 0x00, 0x00,
  0x07, 0x00, 0x00, 0x00, 0x05, 0x00, 0x00, 0x00, 0x02, 0x00, 0x00, 0x00,
  0x00, 0x00, 0x0e, 0x00, 0x16, 0x00, 0x00, 0x00, 0x10, 0x00, 0x0c, 0x00,
  0x0b, 0x00, 0x04, 0x00, 0x0e, 0x00, 0x00, 0x00, 0x18, 0x00, 0x00, 0x00,
  0x00, 0x00, 0x00, 0x08, 0x18, 0x00, 0x00, 0x00, 0x1c, 0x00, 0x00, 0x00,
  0x00, 0x00, 0x06, 0x00, 0x08, 0x00, 0x07, 0x00, 0x06, 0x00, 0x00, 0x00,
  0x00, 0x00, 0x00, 0x01, 0x01, 0x00, 0x00, 0x00, 0x07, 0x00, 0x00, 0x00,
  0x03, 0x00, 0x00, 0x00, 0x00, 0x00, 0x00, 0x00, 0x04, 0x00, 0x00, 0x00,
  0x03, 0x00, 0x00, 0x00, 0x01, 0x00, 0x00, 0x00, 0x09, 0x00, 0x00, 0x00,
  0x01, 0x00, 0x00, 0x00, 0x00, 0x00, 0x00, 0x00, 0x0a, 0x00, 0x00, 0x00,
  0x74, 0x03, 0x00, 0x00, 0x0c, 0x03, 0x00, 0x00, 0xa8, 0x02, 0x00, 0x00,
  0x54, 0x02, 0x00, 0x00, 0x0c, 0x02, 0x00, 0x00, 0xc4, 0x01, 0x00, 0x00,
  0x7c, 0x01, 0x00, 0x00, 0xec, 0x00, 0x00, 0x00, 0x5c, 0x00, 0x00, 0x00,
  0x04, 0x00, 0x00, 0x00, 0xc8, 0xfc, 0xff, 0xff, 0x14, 0x00, 0x00, 0x00,
  0x1c, 0x00, 0x00, 0x00, 0x1c, 0x00, 0x00, 0x00, 0x0a, 0x00, 0x00, 0x00,
  0x34, 0x00, 0x00, 0x00, 0x02, 0x00, 0x00, 0x00, 0xff, 0xff, 0xff, 0xff,
  0x01, 0x00, 0x00, 0x00, 0xb4, 0xfc, 0xff, 0xff, 0x19, 0x00, 0x00, 0x00,
  0x53, 0x74, 0x61, 0x74, 0x65, 0x66, 0x75, 0x6c, 0x50, 0x61, 0x72, 0x74,
  0x69, 0x74, 0x69, 0x6f, 0x6e, 0x65, 0x64, 0x43, 0x61, 0x6c, 0x6c, 0x3a,
  0x30, 0x00, 0x00, 0x00, 0x02, 0x00, 0x00, 0x00, 0x01, 0x00, 0x00, 0x00,
  0x01, 0x00, 0x00, 0x00, 0x1c, 0xfd, 0xff, 0xff, 0x14, 0x00, 0x00, 0x00,
  0x1c, 0x00, 0x00, 0x00, 0x1c, 0x00, 0x00, 0x00, 0x09, 0x00, 0x00, 0x00,
  0x6c, 0x00, 0x00, 0x00, 0x02, 0x00, 0x00, 0x00, 0xff, 0xff, 0xff, 0xff,
  0x10, 0x00, 0x00, 0x00, 0x08, 0xfd, 0xff, 0xff, 0x52, 0x00, 0x00, 0x00,
  0x73, 0x65, 0x71, 0x75, 0x65, 0x6e, 0x74, 0x69, 0x61, 0x6c, 0x5f, 0x31,
  0x2f, 0x64, 0x65, 0x6e, 0x73, 0x65, 0x5f, 0x33, 0x2f, 0x4d, 0x61, 0x74,
  0x4d, 0x75, 0x6c, 0x3b, 0x73, 0x65, 0x71, 0x75, 0x65, 0x6e, 0x74, 0x69,
  0x61, 0x6c, 0x5f, 0x31, 0x2f, 0x64, 0x65, 0x6e, 0x73, 0x65, 0x5f, 0x33,
  0x2f, 0x52, 0x65, 0x6c, 0x75, 0x3b, 0x73, 0x65, 0x71, 0x75, 0x65, 0x6e,
  0x74, 0x69, 0x61, 0x6c, 0x5f, 0x31, 0x2f, 0x64, 0x65, 0x6e, 0x73, 0x65,
  0x5f, 0x33, 0x2f, 0x42, 0x69, 0x61, 0x73, 0x41, 0x64, 0x64, 0x00, 0x00,
  0x02, 0x00, 0x00, 0x00, 0x01, 0x00, 0x00, 0x00, 0x10, 0x00, 0x00, 0x00,
  0xa8, 0xfd, 0xff, 0xff, 0x14, 0x00, 0x00, 0x00, 0x1c, 0x00, 0x00, 0x00,
  0x1c, 0x00, 0x00, 0x00, 0x08, 0x00, 0x00, 0x00, 0x6c, 0x00, 0x00, 0x00,
  0x02, 0x00, 0x00, 0x00, 0xff, 0xff, 0xff, 0xff, 0x10, 0x00, 0x00, 0x00,
  0x94, 0xfd, 0xff, 0xff, 0x52, 0x00, 0x00, 0x00, 0x73, 0x65, 0x71, 0x75,
  0x65, 0x6e, 0x74, 0x69, 0x61, 0x6c, 0x5f, 0x31, 0x2f, 0x64, 0x65, 0x6e,
  0x73, 0x65, 0x5f, 0x32, 0x2f, 0x4d, 0x61, 0x74, 0x4d, 0x75, 0x6c, 0x3b,
  0x73, 0x65, 0x71, 0x75, 0x65, 0x6e, 0x74, 0x69, 0x61, 0x6c, 0x5f, 0x31,
  0x2f, 0x64, 0x65, 0x6e, 0x73, 0x65, 0x5f, 0x32, 0x2f, 0x52, 0x65, 0x6c,
  0x75, 0x3b, 0x73, 0x65, 0x71, 0x75, 0x65, 0x6e, 0x74, 0x69, 0x61, 0x6c,
  0x5f, 0x31, 0x2f, 0x64, 0x65, 0x6e, 0x73, 0x65, 0x5f, 0x32, 0x2f, 0x42,
  0x69, 0x61, 0x73, 0x41, 0x64, 0x64, 0x00, 0x00, 0x02, 0x00, 0x00, 0x00,
  0x01, 0x00, 0x00, 0x00, 0x10, 0x00, 0x00, 0x00, 0x92, 0xfe, 0xff, 0xff,
  0x10, 0x00, 0x00, 0x00, 0x10, 0x00, 0x00, 0x00, 0x07, 0x00, 0x00, 0x00,
  0x28, 0x00, 0x00, 0x00, 0x10, 0xfe, 0xff, 0xff, 0x1b, 0x00, 0x00, 0x00,
  0x73, 0x65, 0x71, 0x75, 0x65, 0x6e, 0x74, 0x69, 0x61, 0x6c, 0x5f, 0x31,
  0x2f, 0x64, 0x65, 0x6e, 0x73, 0x65, 0x5f, 0x34, 0x2f, 0x4d, 0x61, 0x74,
  0x4d, 0x75, 0x6c, 0x00, 0x02, 0x00, 0x00, 0x00, 0x01, 0x00, 0x00, 0x00,
  0x10, 0x00, 0x00, 0x00, 0xd6, 0xfe, 0xff, 0xff, 0x10, 0x00, 0x00, 0x00,
  0x10, 0x00, 0x00, 0x00, 0x06, 0x00, 0x00, 0x00, 0x28, 0x00, 0x00, 0x00,
  0x54, 0xfe, 0xff, 0xff, 0x1b, 0x00, 0x00, 0x00, 0x73, 0x65, 0x71, 0x75,
  0x65, 0x6e, 0x74, 0x69, 0x61, 0x6c, 0x5f, 0x31, 0x2f, 0x64, 0x65, 0x6e,
  0x73, 0x65, 0x5f, 0x33, 0x2f, 0x4d, 0x61, 0x74, 0x4d, 0x75, 0x6c, 0x00,
  0x02, 0x00, 0x00, 0x00, 0x10, 0x00, 0x00, 0x00, 0x10, 0x00, 0x00, 0x00,
  0x1a, 0xff, 0xff, 0xff, 0x10, 0x00, 0x00, 0x00, 0x10, 0x00, 0x00, 0x00,
  0x05, 0x00, 0x00, 0x00, 0x28, 0x00, 0x00, 0x00, 0x98, 0xfe, 0xff, 0xff,
  0x1b, 0x00, 0x00, 0x00, 0x73, 0x65, 0x71, 0x75, 0x65, 0x6e, 0x74, 0x69,
  0x61, 0x6c, 0x5f, 0x31, 0x2f, 0x64, 0x65, 0x6e, 0x73, 0x65, 0x5f, 0x32,
  0x2f, 0x4d, 0x61, 0x74, 0x4d, 0x75, 0x6c, 0x00, 0x02, 0x00, 0x00, 0x00,
  0x10, 0x00, 0x00, 0x00, 0x01, 0x00, 0x00, 0x00, 0x5e, 0xff, 0xff, 0xff,
  0x10, 0x00, 0x00, 0x00, 0x10, 0x00, 0x00, 0x00, 0x04, 0x00, 0x00, 0x00,
  0x38, 0x00, 0x00, 0x00, 0xdc, 0xfe, 0xff, 0xff, 0x2b, 0x00, 0x00, 0x00,
  0x73, 0x65, 0x71, 0x75, 0x65, 0x6e, 0x74, 0x69, 0x61, 0x6c, 0x5f, 0x31,
  0x2f, 0x64, 0x65, 0x6e, 0x73, 0x65, 0x5f, 0x32, 0x2f, 0x42, 0x69, 0x61,
  0x73, 0x41, 0x64, 0x64, 0x2f, 0x52, 0x65, 0x61, 0x64, 0x56, 0x61, 0x72,
  0x69, 0x61, 0x62, 0x6c, 0x65, 0x4f, 0x70, 0x00, 0x01, 0x00, 0x00, 0x00,
  0x10, 0x00, 0x00, 0x00, 0xae, 0xff, 0xff, 0xff, 0x10, 0x00, 0x00, 0x00,
  0x10, 0x00, 0x00, 0x00, 0x03, 0x00, 0x00, 0x00, 0x38, 0x00, 0x00, 0x00,
  0x2c, 0xff, 0xff, 0xff, 0x2b, 0x00, 0x00, 0x00, 0x73, 0x65, 0x71, 0x75,
  0x65, 0x6e, 0x74, 0x69, 0x61, 0x6c, 0x5f, 0x31, 0x2f, 0x64, 0x65, 0x6e,
  0x73, 0x65, 0x5f, 0x33, 0x2f, 0x42, 0x69, 0x61, 0x73, 0x41, 0x64, 0x64,
  0x2f, 0x52, 0x65, 0x61, 0x64, 0x56, 0x61, 0x72, 0x69, 0x61, 0x62, 0x6c,
  0x65, 0x4f, 0x70, 0x00, 0x01, 0x00, 0x00, 0x00, 0x10, 0x00, 0x00, 0x00,
  0x00, 0x00, 0x0e, 0x00, 0x14, 0x00, 0x10, 0x00, 0x00, 0x00, 0x0c, 0x00,
  0x08, 0x00, 0x04, 0x00, 0x0e, 0x00, 0x00, 0x00, 0x10, 0x00, 0x00, 0x00,
  0x10, 0x00, 0x00, 0x00, 0x02, 0x00, 0x00, 0x00, 0x38, 0x00, 0x00, 0x00,
  0x8c, 0xff, 0xff, 0xff, 0x2b, 0x00, 0x00, 0x00, 0x73, 0x65, 0x71, 0x75,
  0x65, 0x6e, 0x74, 0x69, 0x61, 0x6c, 0x5f, 0x31, 0x2f, 0x64, 0x65, 0x6e,
  0x73, 0x65, 0x5f, 0x34, 0x2f, 0x42, 0x69, 0x61, 0x73, 0x41, 0x64, 0x64,
  0x2f, 0x52, 0x65, 0x61, 0x64, 0x56, 0x61, 0x72, 0x69, 0x61, 0x62, 0x6c,
  0x65, 0x4f, 0x70, 0x00, 0x01, 0x00, 0x00, 0x00, 0x01, 0x00, 0x00, 0x00,
  0x14, 0x00, 0x18, 0x00, 0x14, 0x00, 0x00, 0x00, 0x10, 0x00, 0x0c, 0x00,
  0x08, 0x00, 0x00, 0x00, 0x00, 0x00, 0x04, 0x00, 0x14, 0x00, 0x00, 0x00,
  0x14, 0x00, 0x00, 0x00, 0x20, 0x00, 0x00, 0x00, 0x20, 0x00, 0x00, 0x00,
  0x01, 0x00, 0x00, 0x00, 0x3c, 0x00, 0x00, 0x00, 0x02, 0x00, 0x00, 0x00,
  0xff, 0xff, 0xff, 0xff, 0x01, 0x00, 0x00, 0x00, 0x04, 0x00, 0x04, 0x00,
  0x04, 0x00, 0x00, 0x00, 0x1f, 0x00, 0x00, 0x00, 0x73, 0x65, 0x72, 0x76,
  0x69, 0x6e, 0x67, 0x5f, 0x64, 0x65, 0x66, 0x61, 0x75, 0x6c, 0x74, 0x5f,
  0x64, 0x65, 0x6e, 0x73, 0x65, 0x5f, 0x32, 0x5f, 0x69, 0x6e, 0x70, 0x75,
  0x74, 0x3a, 0x30, 0x00, 0x02, 0x00, 0x00, 0x00, 0x01, 0x00, 0x00, 0x00,
  0x01, 0x00, 0x00, 0x00, 0x01, 0x00, 0x00, 0x00, 0x10, 0x00, 0x00, 0x00,
  0x0c, 0x00, 0x0c, 0x00, 0x0b, 0x00, 0x00, 0x00, 0x00, 0x00, 0x04, 0x00,
  0x0c, 0x00, 0x00, 0x00, 0x09, 0x00, 0x00, 0x00, 0x00, 0x00, 0x00, 0x09
};
const int sine_model_len = 3144;